FANN_FLO_2.1
num_layers=3
learning_rate=0.700000
connection_rate=1.000000
network_type=0
learning_momentum=0.000000
training_algorithm=2
train_error_function=1
train_stop_function=0
cascade_output_change_fraction=0.010000
quickprop_decay=-0.000100
quickprop_mu=1.750000
rprop_increase_factor=1.200000
rprop_decrease_factor=0.500000
rprop_delta_min=0.000000
rprop_delta_max=50.000000
rprop_delta_zero=0.100000
cascade_output_stagnation_epochs=12
cascade_candidate_change_fraction=0.010000
cascade_candidate_stagnation_epochs=12
cascade_max_out_epochs=150
cascade_min_out_epochs=50
cascade_max_cand_epochs=150
cascade_min_cand_epochs=50
cascade_num_candidate_groups=2
bit_fail_limit=3.49999994039535522461e-01
cascade_candidate_limit=1.00000000000000000000e+03
cascade_weight_multiplier=4.00000005960464477539e-01
cascade_activation_functions_count=10
cascade_activation_functions=3 5 7 8 10 11 14 15 16 17 
cascade_activation_steepnesses_count=4
cascade_activation_steepnesses=2.50000000000000000000e-01 5.00000000000000000000e-01 7.50000000000000000000e-01 1.00000000000000000000e+00 
layer_sizes=13 61 2 
scale_included=0
neurons (num_inputs, activation_function, activation_steepness)=(0, 0, 0.00000000000000000000e+00) (0, 0, 0.00000000000000000000e+00) (0, 0, 0.00000000000000000000e+00) (0, 0, 0.00000000000000000000e+00) (0, 0, 0.00000000000000000000e+00) (0, 0, 0.00000000000000000000e+00) (0, 0, 0.00000000000000000000e+00) (0, 0, 0.00000000000000000000e+00) (0, 0, 0.00000000000000000000e+00) (0, 0, 0.00000000000000000000e+00) (0, 0, 0.00000000000000000000e+00) (0, 0, 0.00000000000000000000e+00) (0, 0, 0.00000000000000000000e+00) (13, 5, 5.00000000000000000000e-01) (13, 5, 5.00000000000000000000e-01) (13, 5, 5.00000000000000000000e-01) (13, 5, 5.00000000000000000000e-01) (13, 5, 5.00000000000000000000e-01) (13, 5, 5.00000000000000000000e-01) (13, 5, 5.00000000000000000000e-01) (13, 5, 5.00000000000000000000e-01) (13, 5, 5.00000000000000000000e-01) (13, 5, 5.00000000000000000000e-01) (13, 5, 5.00000000000000000000e-01) (13, 5, 5.00000000000000000000e-01) (13, 5, 5.00000000000000000000e-01) (13, 5, 5.00000000000000000000e-01) (13, 5, 5.00000000000000000000e-01) (13, 5, 5.00000000000000000000e-01) (13, 5, 5.00000000000000000000e-01) (13, 5, 5.00000000000000000000e-01) (13, 5, 5.00000000000000000000e-01) (13, 5, 5.00000000000000000000e-01) (13, 5, 5.00000000000000000000e-01) (13, 5, 5.00000000000000000000e-01) (13, 5, 5.00000000000000000000e-01) (13, 5, 5.00000000000000000000e-01) (13, 5, 5.00000000000000000000e-01) (13, 5, 5.00000000000000000000e-01) (13, 5, 5.00000000000000000000e-01) (13, 5, 5.00000000000000000000e-01) (13, 5, 5.00000000000000000000e-01) (13, 5, 5.00000000000000000000e-01) (13, 5, 5.00000000000000000000e-01) (13, 5, 5.00000000000000000000e-01) (13, 5, 5.00000000000000000000e-01) (13, 5, 5.00000000000000000000e-01) (13, 5, 5.00000000000000000000e-01) (13, 5, 5.00000000000000000000e-01) (13, 5, 5.00000000000000000000e-01) (13, 5, 5.00000000000000000000e-01) (13, 5, 5.00000000000000000000e-01) (13, 5, 5.00000000000000000000e-01) (13, 5, 5.00000000000000000000e-01) (13, 5, 5.00000000000000000000e-01) (13, 5, 5.00000000000000000000e-01) (13, 5, 5.00000000000000000000e-01) (13, 5, 5.00000000000000000000e-01) (13, 5, 5.00000000000000000000e-01) (13, 5, 5.00000000000000000000e-01) (13, 5, 5.00000000000000000000e-01) (13, 5, 5.00000000000000000000e-01) (13, 5, 5.00000000000000000000e-01) (13, 5, 5.00000000000000000000e-01) (13, 5, 5.00000000000000000000e-01) (13, 5, 5.00000000000000000000e-01) (13, 5, 5.00000000000000000000e-01) (13, 5, 5.00000000000000000000e-01) (13, 5, 5.00000000000000000000e-01) (13, 5, 5.00000000000000000000e-01) (13, 5, 5.00000000000000000000e-01) (13, 5, 5.00000000000000000000e-01) (13, 5, 5.00000000000000000000e-01) (0, 5, 0.00000000000000000000e+00) (61, 5, 5.00000000000000000000e-01) (0, 5, 0.00000000000000000000e+00) 
connections (connected_to_neuron, weight)=(0, 1.61605942249298095703e+00) (1, 6.76461398601531982422e-01) (2, 3.59928798675537109375e+00) (3, 2.54684662818908691406e+00) (4, -2.50707125663757324219e+00) (5, -1.07032597064971923828e+00) (6, -1.24881541728973388672e+00) (7, -6.55736848711967468262e-02) (8, 9.47053015232086181641e-01) (9, -2.10354709625244140625e+00) (10, 5.84600067138671875000e+00) (11, 3.85232597589492797852e-01) (12, -5.66314458847045898438e-01) (0, -1.23106157779693603516e+00) (1, -1.13056123256683349609e+00) (2, -5.55009782314300537109e-01) (3, -5.44527590274810791016e-01) (4, 3.74139881134033203125e+00) (5, 5.62670278549194335938e+00) (6, -1.65427827835083007812e+00) (7, -6.51234686374664306641e-01) (8, -9.35487210750579833984e-01) (9, 7.08809494972229003906e-01) (10, 3.29370570182800292969e+00) (11, 5.40937757492065429688e+00) (12, -1.14301824569702148438e+00) (0, -3.15960019826889038086e-01) (1, 2.25437030196189880371e-01) (2, -2.12151241302490234375e+00) (3, -7.96562910079956054688e-01) (4, -4.16118741035461425781e-01) (5, 1.95627546310424804688e+00) (6, 7.86212012171745300293e-02) (7, 2.27815628051757812500e+00) (8, -4.26043003797531127930e-01) (9, 1.88376224040985107422e+00) (10, 1.57531094551086425781e+00) (11, 1.09353554248809814453e+00) (12, -1.92815852165222167969e+00) (0, -1.43555030226707458496e-01) (1, -6.30489766597747802734e-01) (2, -3.79421979188919067383e-01) (3, 3.48323941230773925781e-01) (4, 3.41933816671371459961e-02) (5, -1.40349543094635009766e+00) (6, 8.44215095043182373047e-01) (7, 4.65983092784881591797e-01) (8, -1.16171491146087646484e+00) (9, -8.16537380218505859375e-01) (10, 6.38030529022216796875e-01) (11, 1.31145453453063964844e+00) (12, 6.78839540481567382812e+00) (0, 3.08934783935546875000e+00) (1, 3.55867910385131835938e+00) (2, 3.46478390693664550781e+00) (3, 2.30155348777770996094e+00) (4, 3.65423226356506347656e+00) (5, 5.05335712432861328125e+00) (6, -6.55456185340881347656e-01) (7, -1.73251974582672119141e+00) (8, 5.06262111663818359375e+00) (9, 4.10837125778198242188e+00) (10, -1.06486535072326660156e+00) (11, -2.41092920303344726562e-01) (12, -2.01698708534240722656e+00) (0, -8.00172507762908935547e-01) (1, -1.47243368625640869141e+00) (2, 3.94003295898437500000e+00) (3, 4.06119394302368164062e+00) (4, -1.40784859657287597656e+00) (5, 4.16569280624389648438e+00) (6, 3.25791835784912109375e+00) (7, 4.05538129806518554688e+00) (8, 5.71551513671875000000e+00) (9, 3.42953896522521972656e+00) (10, 5.43675947189331054688e+00) (11, -1.45548510551452636719e+00) (12, 5.90356206893920898438e+00) (0, -2.13099077343940734863e-01) (1, 4.27279949188232421875e+00) (2, -1.47362136840820312500e+00) (3, -1.51788604259490966797e+00) (4, 4.35059833526611328125e+00) (5, 4.25288963317871093750e+00) (6, 4.49178123474121093750e+00) (7, 4.52611207962036132812e+00) (8, -1.46860852837562561035e-01) (9, -1.52138102054595947266e+00) (10, -6.80335462093353271484e-01) (11, 4.28926086425781250000e+00) (12, 2.07152888178825378418e-01) (0, 1.95424270629882812500e+00) (1, 3.96403431892395019531e+00) (2, 1.42147386074066162109e+00) (3, 1.72302269935607910156e+00) (4, -1.34311461448669433594e+00) (5, 4.11154699325561523438e+00) (6, 4.13384294509887695312e+00) (7, 4.28222751617431640625e+00) (8, -6.04635849595069885254e-02) (9, -1.27106308937072753906e+00) (10, 2.57768678665161132812e+00) (11, -1.37555289268493652344e+00) (12, 6.16599321365356445312e+00) (0, -1.07021994888782501221e-01) (1, -1.23848712444305419922e+00) (2, -1.11834275722503662109e+00) (3, 2.43244338035583496094e+00) (4, 3.31015253067016601562e+00) (5, 3.70597982406616210938e+00) (6, 3.90730237960815429688e+00) (7, 3.45405626296997070312e+00) (8, -6.94725438952445983887e-02) (9, 3.23318648338317871094e+00) (10, -3.67913007736206054688e-01) (11, 2.15423870086669921875e+00) (12, 3.12566250562667846680e-01) (0, 4.64471054077148437500e+00) (1, 6.27390527725219726562e+00) (2, 5.77283954620361328125e+00) (3, -1.86530840396881103516e+00) (4, 5.31651115417480468750e+00) (5, -1.96753084659576416016e+00) (6, 5.91894912719726562500e+00) (7, 6.07722282409667968750e+00) (8, -1.62868535518646240234e+00) (9, 5.84708499908447265625e+00) (10, -2.17097592353820800781e+00) (11, 6.10309028625488281250e+00) (12, 6.05628395080566406250e+00) (0, 1.07972359657287597656e+00) (1, -6.21592760086059570312e-01) (2, 2.83755987882614135742e-01) (3, -7.79432713985443115234e-01) (4, 1.23343311250209808350e-01) (5, -5.15938773751258850098e-02) (6, 7.03670561313629150391e-01) (7, -6.56448483467102050781e-01) (8, -4.53915655612945556641e-01) (9, -7.93903395533561706543e-02) (10, 3.84130120277404785156e-01) (11, 9.97329592704772949219e-01) (12, 6.03381681442260742188e+00) (0, 3.01482379436492919922e-01) (1, 3.77618885040283203125e+00) (2, -1.31415021419525146484e+00) (3, 3.77487373352050781250e+00) (4, 3.93934512138366699219e+00) (5, 3.59153604507446289062e+00) (6, 3.72876524925231933594e+00) (7, 3.52822041511535644531e+00) (8, 8.57100427150726318359e-01) (9, -1.52986192703247070312e+00) (10, -9.44732844829559326172e-01) (11, -1.32740223407745361328e+00) (12, -1.39923787117004394531e+00) (0, 2.84374189376831054688e+00) (1, 2.82501053810119628906e+00) (2, -1.48213779926300048828e+00) (3, 3.31172680854797363281e+00) (4, 3.39523482322692871094e+00) (5, 3.60998845100402832031e+00) (6, -9.56388115882873535156e-01) (7, 3.78842544555664062500e+00) (8, -1.41733005642890930176e-01) (9, 1.63918510079383850098e-01) (10, -5.53565561771392822266e-01) (11, 3.33044719696044921875e+00) (12, 3.20779353380203247070e-01) (0, -1.32770895957946777344e+00) (1, 5.85153865814208984375e+00) (2, 2.53323554992675781250e-01) (3, -2.73794531822204589844e-01) (4, 2.86144495010375976562e-01) (5, 1.95668482780456542969e+00) (6, -2.17823490500450134277e-01) (7, 1.00790905952453613281e+00) (8, -6.96236193180084228516e-01) (9, 3.50540423393249511719e+00) (10, -1.24795667827129364014e-01) (11, -8.23634386062622070312e-01) (12, -1.36977648735046386719e+00) (0, 6.08931481838226318359e-01) (1, 3.79182338714599609375e+00) (2, 3.72548556327819824219e+00) (3, 3.94138813018798828125e+00) (4, -1.15115952491760253906e+00) (5, 3.68531203269958496094e+00) (6, 4.01251602172851562500e+00) (7, 4.26294708251953125000e+00) (8, 2.25668489933013916016e-01) (9, 4.18196344375610351562e+00) (10, -6.02103710174560546875e-01) (11, 3.98588538169860839844e+00) (12, 5.95458221435546875000e+00) (0, 2.73175358772277832031e+00) (1, 3.73231363296508789062e+00) (2, -2.53902301192283630371e-02) (3, 3.24197936058044433594e+00) (4, -1.30414223670959472656e+00) (5, -5.96701622009277343750e-01) (6, 3.42723965644836425781e+00) (7, 3.21421408653259277344e+00) (8, -3.26592803001403808594e-01) (9, -4.36187207698822021484e-01) (10, 3.61609005928039550781e+00) (11, 4.41195011138916015625e+00) (12, 2.08250984549522399902e-01) (0, -1.30320429801940917969e+00) (1, -5.34934878349304199219e-01) (2, 1.63596415519714355469e+00) (3, -4.11026298999786376953e-01) (4, -2.08480492234230041504e-01) (5, 4.21727091073989868164e-01) (6, 8.63270878791809082031e-01) (7, 9.79637727141380310059e-02) (8, -3.81205111742019653320e-01) (9, -2.69801557064056396484e-01) (10, 6.07963323593139648438e-01) (11, 1.54345595836639404297e+00) (12, -1.84559845924377441406e+00) (0, 1.17751359939575195312e+01) (1, 6.43513441085815429688e+00) (2, 6.43468332290649414062e+00) (3, 6.35456705093383789062e+00) (4, 7.54027223587036132812e+00) (5, 6.26393365859985351562e+00) (6, 6.73814535140991210938e+00) (7, 6.34948110580444335938e+00) (8, 4.34267568588256835938e+00) (9, 6.36390972137451171875e+00) (10, 1.40081920623779296875e+01) (11, 6.46718311309814453125e+00) (12, 6.15151643753051757812e+00) (0, -8.42888355255126953125e-01) (1, 7.73381888866424560547e-01) (2, 1.02709960192441940308e-02) (3, 3.71015644073486328125e+00) (4, -1.57958078384399414062e+00) (5, 6.69125795364379882812e-01) (6, 2.31067156791687011719e+00) (7, 3.86872363090515136719e+00) (8, -2.02868759632110595703e-01) (9, 9.09636616706848144531e-01) (10, -1.84598851203918457031e+00) (11, 3.40130686759948730469e-01) (12, 5.17667722702026367188e+00) (0, -4.01286989450454711914e-01) (1, 3.47940111160278320312e+00) (2, -1.60340392589569091797e+00) (3, -1.52051043510437011719e+00) (4, 3.55202102661132812500e+00) (5, 4.19679737091064453125e+00) (6, 3.79213571548461914062e+00) (7, 4.05891275405883789062e+00) (8, -3.36905956268310546875e-01) (9, 1.01260758936405181885e-01) (10, -4.56774890422821044922e-01) (11, 3.95023965835571289062e+00) (12, 3.02219122648239135742e-01) (0, -1.12276992797851562500e+01) (1, -2.18098473548889160156e+00) (2, -2.95626235008239746094e+00) (3, -2.69316005706787109375e+00) (4, -7.44931793212890625000e+00) (5, -2.23841857910156250000e+00) (6, -3.48430347442626953125e+00) (7, -2.08005356788635253906e+00) (8, -3.80315423011779785156e+00) (9, -2.54988384246826171875e+00) (10, -3.28720092773437500000e+01) (11, -2.81319570541381835938e+00) (12, -1.85523986816406250000e+00) (0, 2.55981564521789550781e+00) (1, -1.16858875751495361328e+00) (2, -1.79492855072021484375e+00) (3, 5.37565708160400390625e+00) (4, -1.31359493732452392578e+00) (5, 5.55822610855102539062e+00) (6, 3.67636203765869140625e+00) (7, 5.71403884887695312500e+00) (8, -1.34619569778442382812e+00) (9, -1.02247381210327148438e+00) (10, 5.65884780883789062500e+00) (11, 4.68263530731201171875e+00) (12, 6.10533666610717773438e+00) (0, 2.62663334608078002930e-01) (1, -7.75555193424224853516e-01) (2, 1.96079939603805541992e-01) (3, 2.78553652763366699219e+00) (4, -4.24373954534530639648e-01) (5, 1.19972550868988037109e+00) (6, 1.61973571777343750000e+00) (7, 6.11365675926208496094e-01) (8, 5.07440423965454101562e+00) (9, -2.27659773826599121094e+00) (10, -8.25283885002136230469e-01) (11, 3.25268793106079101562e+00) (12, 6.08395433425903320312e+00) (0, 2.49784097075462341309e-01) (1, -1.56018388271331787109e+00) (2, 7.45833575725555419922e-01) (3, 7.39787891507148742676e-02) (4, 3.83888304233551025391e-01) (5, -5.93620002269744873047e-01) (6, 4.33121711015701293945e-01) (7, 3.00381273031234741211e-01) (8, 8.51139128208160400391e-01) (9, -5.16154825687408447266e-01) (10, 3.83084654808044433594e-01) (11, -8.38777542114257812500e-01) (12, 5.24701976776123046875e+00) (0, -5.89373731613159179688e+00) (1, -1.99150729179382324219e+00) (2, -1.96571409702301025391e+00) (3, -2.00424504280090332031e+00) (4, -1.95659935474395751953e+00) (5, -2.06390714645385742188e+00) (6, -1.87579154968261718750e+00) (7, -1.95027565956115722656e+00) (8, 5.55440711975097656250e+00) (9, -1.95350050926208496094e+00) (10, -1.92889165878295898438e+00) (11, -1.85825037956237792969e+00) (12, -1.66327953338623046875e+00) (0, 6.55931115150451660156e-01) (1, -1.62059202790260314941e-01) (2, 5.09993553161621093750e-01) (3, 1.04566287994384765625e+00) (4, 1.96664139628410339355e-01) (5, 6.63848638534545898438e-01) (6, -1.08582586050033569336e-01) (7, 2.55471110343933105469e-01) (8, 4.59576621651649475098e-02) (9, 4.24017488956451416016e-01) (10, 1.23865187168121337891e+00) (11, -6.46825373172760009766e-01) (12, -1.94292497634887695312e+00) (0, 4.88171398639678955078e-01) (1, -9.06637758016586303711e-02) (2, -4.19628858566284179688e-01) (3, 6.93561613559722900391e-01) (4, -2.59361445903778076172e-01) (5, -2.62961983680725097656e-01) (6, 4.40731316804885864258e-01) (7, -3.80473017692565917969e-01) (8, 3.66049677133560180664e-01) (9, -9.36920464038848876953e-01) (10, 1.78398534655570983887e-01) (11, -1.44591554999351501465e-01) (12, 5.08666181564331054688e+00) (0, -2.05107736587524414062e+00) (1, 4.45244836807250976562e+00) (2, -1.45346128940582275391e+00) (3, 4.39027452468872070312e+00) (4, 6.06424713134765625000e+00) (5, 4.04972505569458007812e+00) (6, -2.27703714370727539062e+00) (7, 5.43008184432983398438e+00) (8, 5.16309881210327148438e+00) (9, 4.08009243011474609375e+00) (10, 5.02432489395141601562e+00) (11, -7.51863241195678710938e-01) (12, 6.01871728897094726562e+00) (0, 6.54644489288330078125e-01) (1, -2.31487226486206054688e+00) (2, 1.92921972274780273438e+00) (3, -9.76656556129455566406e-01) (4, 2.46058166027069091797e-01) (5, -1.48175668716430664062e+00) (6, 9.82590496540069580078e-01) (7, -1.11339628696441650391e+00) (8, -1.64138197898864746094e-01) (9, 8.29284965991973876953e-01) (10, 1.31731402873992919922e+00) (11, -2.74657636880874633789e-01) (12, -4.13396978378295898438e+00) (0, -2.22802567481994628906e+00) (1, 1.42266678810119628906e+00) (2, 2.00344872474670410156e+00) (3, -1.41230210661888122559e-01) (4, 4.59144306182861328125e+00) (5, 1.48926943540573120117e-01) (6, 1.45105206966400146484e+00) (7, 3.55690813064575195312e+00) (8, 2.58889287710189819336e-01) (9, 1.56568765640258789062e-01) (10, -7.41430759429931640625e-01) (11, -6.35981321334838867188e-01) (12, -1.46650958061218261719e+00) (0, 1.17892923355102539062e+01) (1, 6.36158704757690429688e+00) (2, 6.55797529220581054688e+00) (3, 6.37619352340698242188e+00) (4, 7.53339910507202148438e+00) (5, 6.29845523834228515625e+00) (6, 6.57141876220703125000e+00) (7, 6.28278589248657226562e+00) (8, 4.27715253829956054688e+00) (9, 6.31457567214965820312e+00) (10, 1.39535627365112304688e+01) (11, 6.52245473861694335938e+00) (12, 6.27933263778686523438e+00) (0, 1.40581637620925903320e-01) (1, -5.94790577888488769531e-02) (2, -1.02083039283752441406e+00) (3, -6.18907749652862548828e-01) (4, 3.32540184259414672852e-01) (5, 4.20118063688278198242e-01) (6, 1.64560925960540771484e+00) (7, -5.38663506507873535156e-01) (8, 5.19873619079589843750e-01) (9, -2.85383239388465881348e-02) (10, 9.43961441516876220703e-01) (11, 2.87578403949737548828e-01) (12, -1.77932763099670410156e+00) (0, -1.08741104602813720703e-01) (1, -7.11655393242835998535e-02) (2, 5.28405606746673583984e-03) (3, 3.13228130340576171875e+00) (4, -2.21355944871902465820e-01) (5, -1.14001333713531494141e+00) (6, -1.47715047001838684082e-01) (7, 1.88414466381072998047e+00) (8, -4.29998189210891723633e-01) (9, -6.97678327560424804688e-01) (10, -5.53125813603401184082e-02) (11, 1.85352301597595214844e+00) (12, 5.76401090621948242188e+00) (0, 5.72759270668029785156e-01) (1, -3.58264833688735961914e-01) (2, 6.71806707978248596191e-02) (3, 3.35873693227767944336e-01) (4, 5.69061040878295898438e-01) (5, 4.41123217344284057617e-01) (6, 1.43024432659149169922e+00) (7, 4.83614355325698852539e-01) (8, 4.94690567255020141602e-01) (9, 2.51678562164306640625e+00) (10, 1.47899651527404785156e+00) (11, 2.18451526015996932983e-02) (12, 6.52277648448944091797e-01) (0, -6.66654109954833984375e-01) (1, -1.43431091308593750000e+00) (2, 9.71506595611572265625e-01) (3, 2.88981962203979492188e+00) (4, 2.05582827329635620117e-01) (5, -3.60901594161987304688e-01) (6, 1.29278218746185302734e+00) (7, -6.21368169784545898438e-01) (8, -8.69028329849243164062e-01) (9, -8.26936900615692138672e-01) (10, 1.13824456930160522461e-01) (11, 2.67802214622497558594e+00) (12, 3.78789067268371582031e+00) (0, -4.81999903917312622070e-01) (1, 4.01300489902496337891e-01) (2, -3.58348757028579711914e-01) (3, 7.60508894920349121094e-01) (4, -2.39136204123497009277e-01) (5, -4.14870887994766235352e-01) (6, -7.61395215988159179688e-01) (7, -1.76579689979553222656e+00) (8, 1.66905319690704345703e+00) (9, -2.20884844660758972168e-01) (10, 5.43840169906616210938e-01) (11, -2.37884268164634704590e-01) (12, -1.70953595638275146484e+00) (0, -1.73420414328575134277e-01) (1, 1.02000439167022705078e+00) (2, 6.00140213966369628906e-01) (3, 2.29388371109962463379e-01) (4, -7.10565745830535888672e-01) (5, -3.28885138034820556641e-01) (6, -5.17310440540313720703e-01) (7, -1.83958083391189575195e-01) (8, -3.25908511877059936523e-01) (9, 2.86596596240997314453e-01) (10, -7.12824225425720214844e-01) (11, 1.96529090404510498047e-01) (12, 5.22570419311523437500e+00) (0, -5.94700872898101806641e-01) (1, 3.34453749656677246094e+00) (2, 1.43430501222610473633e-01) (3, 2.68174743652343750000e+00) (4, -3.17827999591827392578e-01) (5, 1.09155547618865966797e+00) (6, -1.60871520638465881348e-01) (7, 1.15737259387969970703e+00) (8, -4.78880822658538818359e-01) (9, -1.17571866512298583984e+00) (10, -1.20582866668701171875e+00) (11, 4.19494438171386718750e+00) (12, 5.13555288314819335938e+00) (0, -2.45845943689346313477e-01) (1, -5.42122960090637207031e-01) (2, -8.94122183322906494141e-01) (3, 5.90820759534835815430e-02) (4, -6.87588155269622802734e-02) (5, 5.08323252201080322266e-01) (6, -5.88812112808227539062e-01) (7, -8.93558561801910400391e-02) (8, -5.72390794754028320312e-01) (9, 9.75346267223358154297e-01) (10, 8.38870584964752197266e-01) (11, 2.27043434977531433105e-01) (12, 3.65679293870925903320e-01) (0, -6.09623670578002929688e-01) (1, -6.54454827308654785156e-01) (2, -1.08544576168060302734e+00) (3, -1.82635381817817687988e-01) (4, 8.12457621097564697266e-01) (5, -9.08018410205841064453e-01) (6, 3.49894464015960693359e-01) (7, -3.38222645223140716553e-02) (8, 8.18534612655639648438e-01) (9, 8.96270573139190673828e-01) (10, 2.20352448523044586182e-02) (11, -3.46178531646728515625e-01) (12, 5.09602737426757812500e+00) (0, 3.43015456199645996094e+00) (1, 3.64436960220336914062e+00) (2, 3.59630441665649414062e+00) (3, 3.58900141716003417969e+00) (4, 4.19215440750122070312e+00) (5, 3.86142563819885253906e+00) (6, 4.08650112152099609375e+00) (7, 3.77626132965087890625e+00) (8, 4.59768995642662048340e-02) (9, -1.09728264808654785156e+00) (10, -5.15621185302734375000e-01) (11, -7.13093459606170654297e-01) (12, 4.59993630647659301758e-01) (0, 1.10285794734954833984e+00) (1, -8.31542909145355224609e-02) (2, -2.47777700424194335938e-01) (3, 2.65045672655105590820e-01) (4, -9.08452808856964111328e-01) (5, 7.60411560535430908203e-01) (6, -6.42946004867553710938e-01) (7, -2.68071085214614868164e-01) (8, 1.34479999542236328125e+00) (9, -2.99147439002990722656e+00) (10, 1.70326992869377136230e-01) (11, -7.34232902526855468750e-01) (12, 1.22298276424407958984e+00) (0, 8.11361193656921386719e-01) (1, -5.43352782726287841797e-01) (2, -9.96201157569885253906e-01) (3, 4.44417566061019897461e-01) (4, 6.66761159896850585938e-01) (5, -1.85576844215393066406e+00) (6, -6.79326951503753662109e-01) (7, 1.19699454307556152344e+00) (8, -4.13950681686401367188e-01) (9, 6.25019431114196777344e-01) (10, -3.20804804563522338867e-01) (11, 6.67969644069671630859e-01) (12, -2.03165388107299804688e+00) (0, 1.18628244400024414062e+01) (1, 6.41141176223754882812e+00) (2, 6.45827341079711914062e+00) (3, 6.30849790573120117188e+00) (4, 7.67968845367431640625e+00) (5, 6.33481502532958984375e+00) (6, 6.66448831558227539062e+00) (7, 6.43040084838867187500e+00) (8, 4.35309743881225585938e+00) (9, 6.32199239730834960938e+00) (10, 1.40437221527099609375e+01) (11, 6.43882656097412109375e+00) (12, 6.19905328750610351562e+00) (0, -5.59170365333557128906e-01) (1, 3.20458865165710449219e+00) (2, -4.71497595310211181641e-01) (3, -1.51259946823120117188e+00) (4, 3.40929412841796875000e+00) (5, 3.95719861984252929688e+00) (6, 3.88942265510559082031e+00) (7, 3.94982218742370605469e+00) (8, -8.31596553325653076172e-02) (9, 3.70389968156814575195e-01) (10, -1.62274092435836791992e-01) (11, -1.53076922893524169922e+00) (12, 6.77352964878082275391e-01) (0, 1.31322488188743591309e-01) (1, -5.53491055965423583984e-01) (2, 1.93884838372468948364e-02) (3, 1.03635895252227783203e+00) (4, -6.52986407279968261719e-01) (5, 5.87350010871887207031e-01) (6, 5.65529108047485351562e-01) (7, -7.94974923133850097656e-01) (8, 3.44379663467407226562e-01) (9, 3.94187808036804199219e-01) (10, 1.32419705390930175781e+00) (11, -1.68648612499237060547e+00) (12, -2.45804262161254882812e+00) (0, 9.04452025890350341797e-01) (1, 1.84582080692052841187e-03) (2, -1.53865637257695198059e-02) (3, -8.17205071449279785156e-01) (4, -6.54863059520721435547e-01) (5, 7.98438847064971923828e-01) (6, -4.62330251932144165039e-01) (7, -6.87263011932373046875e-01) (8, 2.25691720843315124512e-01) (9, 2.30114072561264038086e-01) (10, -5.40733337402343750000e-02) (11, 4.82844784855842590332e-02) (12, 1.62355589866638183594e+00) (0, 1.42535221576690673828e+00) (1, -1.85310626029968261719e+00) (2, -6.38656139373779296875e-01) (3, -3.03377836942672729492e-01) (4, 2.25582766532897949219e+00) (5, 2.51572608947753906250e-01) (6, 1.45502090454101562500e-01) (7, 3.03427457809448242188e-01) (8, 1.25557374954223632812e+00) (9, -6.46704852581024169922e-01) (10, -1.84379182755947113037e-02) (11, 5.30842721462249755859e-01) (12, -1.34249418973922729492e-01) (0, -1.46172419190406799316e-01) (1, -7.46249973773956298828e-01) (2, 2.61069941520690917969e+00) (3, -5.99180042743682861328e-01) (4, -6.62704110145568847656e-01) (5, 1.00213289260864257812e+00) (6, 2.58159369230270385742e-01) (7, -6.28262400627136230469e-01) (8, -1.10409593582153320312e+00) (9, 1.27656090259552001953e+00) (10, 8.15650463104248046875e-01) (11, -5.04325032234191894531e-01) (12, 2.50565743446350097656e+00) (0, -1.60176277160644531250e-01) (1, -7.33127892017364501953e-01) (2, -1.67760348320007324219e+00) (3, 7.27801263332366943359e-01) (4, -4.27225798368453979492e-01) (5, 6.50988399982452392578e-01) (6, -1.67204394936561584473e-01) (7, 1.51305830478668212891e+00) (8, -1.07401043176651000977e-01) (9, 2.36558511853218078613e-01) (10, 1.26105403900146484375e+00) (11, 5.37943989038467407227e-02) (12, 4.38199424743652343750e+00) (0, -1.47342228889465332031e+00) (1, 4.35252666473388671875e-01) (2, 7.57574200630187988281e-01) (3, 5.70734381675720214844e-01) (4, -1.60228550434112548828e+00) (5, 3.85848999023437500000e-01) (6, -4.15555447340011596680e-01) (7, 2.32903435826301574707e-02) (8, -6.72373175621032714844e-01) (9, -6.42899423837661743164e-02) (10, -1.01749575138092041016e+00) (11, -5.60957565903663635254e-02) (12, 6.13965988159179687500e+00) (0, -3.89438748359680175781e-01) (1, -1.45865499973297119141e+00) (2, -1.42003035545349121094e+00) (3, 4.03617429733276367188e+00) (4, 4.02882480621337890625e+00) (5, 4.01466608047485351562e+00) (6, -1.25929450988769531250e+00) (7, 4.13048458099365234375e+00) (8, -1.94581016898155212402e-01) (9, 3.92815518379211425781e+00) (10, -6.21322274208068847656e-01) (11, 3.92344737052917480469e+00) (12, 3.29284220933914184570e-01) (0, 4.52360200881958007812e+00) (1, 3.40482521057128906250e+00) (2, 3.74277710914611816406e+00) (3, 3.68240904808044433594e+00) (4, -1.54432272911071777344e+00) (5, 3.94795608520507812500e+00) (6, 3.65720653533935546875e+00) (7, 3.74518251419067382812e+00) (8, -1.60988792777061462402e-01) (9, 3.96933960914611816406e+00) (10, -4.77195918560028076172e-01) (11, 3.54592609405517578125e+00) (12, 3.14011186361312866211e-01) (0, -2.43682308197021484375e+01) (1, -2.16483497619628906250e+00) (2, -3.04662656784057617188e+00) (3, -2.69640088081359863281e+00) (4, -7.42519378662109375000e+00) (5, -2.18476915359497070312e+00) (6, -3.51019620895385742188e+00) (7, -1.99719321727752685547e+00) (8, -3.74808573722839355469e+00) (9, -2.58191108703613281250e+00) (10, -1.48582935333251953125e+01) (11, -2.87420201301574707031e+00) (12, -1.82708477973937988281e+00) (0, -5.94690418243408203125e+00) (1, -1.95292150974273681641e+00) (2, -2.17110753059387207031e+00) (3, -1.96914172172546386719e+00) (4, -2.34570622444152832031e+00) (5, -1.95846593379974365234e+00) (6, -2.09481906890869140625e+00) (7, -1.94491755962371826172e+00) (8, 5.33910894393920898438e+00) (9, -2.06296706199645996094e+00) (10, -2.95739579200744628906e+00) (11, -2.00153875350952148438e+00) (12, -1.83851563930511474609e+00) (0, -1.75307023525238037109e+00) (1, 5.25666065514087677002e-02) (2, -1.49258244037628173828e+00) (3, 3.66133064031600952148e-01) (4, -5.14413118362426757812e-01) (5, 2.61446475982666015625e-01) (6, 9.79974448680877685547e-01) (7, 8.52818787097930908203e-01) (8, 1.28499269485473632812e-01) (9, 4.37606006860733032227e-01) (10, 1.91559195518493652344e-01) (11, 5.89473545551300048828e-01) (12, -2.05217552185058593750e+00) (0, 2.03010344505310058594e+00) (1, 4.10143280029296875000e+00) (2, 1.45833706855773925781e+00) (3, -1.34585940837860107422e+00) (4, -1.58171319961547851562e+00) (5, 4.21021032333374023438e+00) (6, 4.07219934463500976562e+00) (7, 4.19120216369628906250e+00) (8, -1.25825092196464538574e-01) (9, 1.62589049339294433594e+00) (10, 2.49681019783020019531e+00) (11, -1.14683198928833007812e+00) (12, 3.68342965841293334961e-01) (0, -9.16969895362854003906e-01) (1, 5.09077548980712890625e-01) (2, 1.92054286599159240723e-01) (3, 2.33464312553405761719e+00) (4, -6.91564023494720458984e-01) (5, 6.58025205135345458984e-01) (6, 1.12311877310276031494e-01) (7, -4.29809987545013427734e-01) (8, 4.35519278049468994141e-01) (9, -3.11597973108291625977e-01) (10, -4.52401220798492431641e-01) (11, 1.55512452125549316406e+00) (12, 2.86342072486877441406e+00) (0, -6.80929303169250488281e-01) (1, -8.75284671783447265625e-01) (2, -2.31226459145545959473e-02) (3, 1.27735465764999389648e-01) (4, 7.18404531478881835938e-01) (5, -1.49185016751289367676e-01) (6, 4.88424301147460937500e-03) (7, -1.32607564330101013184e-01) (8, 6.17012500762939453125e-01) (9, 4.20507699251174926758e-01) (10, 1.06408551335334777832e-01) (11, -6.12595438957214355469e-01) (12, 5.68898725509643554688e+00) (0, -2.53184229135513305664e-01) (1, 1.78650271892547607422e+00) (2, 9.01136159896850585938e-01) (3, -1.01639127731323242188e+00) (4, -9.20525074005126953125e-01) (5, -7.97303140163421630859e-01) (6, 3.98800492286682128906e-01) (7, 3.69904577732086181641e-01) (8, -4.51841145753860473633e-01) (9, -9.84367489814758300781e-01) (10, 7.16109931468963623047e-01) (11, 4.47157770395278930664e-01) (12, 5.63580751419067382812e+00) (13, -1.96070277690887451172e+00) (14, 5.59657812118530273438e+00) (15, -2.27070999145507812500e+00) (16, 3.69334435462951660156e+00) (17, -2.02051734924316406250e+00) (18, 4.24110984802246093750e+00) (19, -1.47950899600982666016e+00) (20, -1.43555343151092529297e+00) (21, -1.40885424613952636719e+00) (22, 5.81992197036743164062e+00) (23, 2.16188597679138183594e+00) (24, -1.92504668235778808594e+00) (25, -1.46144366264343261719e+00) (26, 6.56704664230346679688e+00) (27, -1.41760838031768798828e+00) (28, -1.50156211853027343750e+00) (29, -1.46293902397155761719e+00) (30, -1.93252909183502197266e+00) (31, 5.97364807128906250000e+00) (32, -1.48451352119445800781e+00) (33, 5.90140390396118164062e+00) (34, 6.13465309143066406250e+00) (35, 6.15106296539306640625e+00) (36, 4.82137584686279296875e+00) (37, 6.21947908401489257812e+00) (38, 1.73595535755157470703e+00) (39, 2.03818941116333007812e+00) (40, 5.87530851364135742188e+00) (41, -1.55200171470642089844e+00) (42, 6.06181430816650390625e+00) (43, -1.93530964851379394531e+00) (44, -6.42905414104461669922e-01) (45, 1.25999760627746582031e+00) (46, -1.31445956230163574219e+00) (47, 3.81526970863342285156e+00) (48, -2.17216730117797851562e+00) (49, 5.28818321228027343750e+00) (50, 1.29455828666687011719e+00) (51, 3.36801600456237792969e+00) (52, 2.62901496887207031250e+00) (53, -1.41975975036621093750e+00) (54, 1.22831892967224121094e+00) (55, -2.65484476089477539062e+00) (56, -1.93417108058929443359e+00) (57, -1.40868401527404785156e+00) (58, -4.24479866027832031250e+00) (59, 3.06178832054138183594e+00) (60, 4.66279315948486328125e+00) (61, 5.45035839080810546875e+00) (62, 4.40709161758422851562e+00) (63, 6.19343471527099609375e+00) (64, -1.46894502639770507812e+00) (65, -1.46360540390014648438e+00) (66, 5.91133546829223632812e+00) (67, 6.15984821319580078125e+00) (68, -3.77301907539367675781e+00) (69, -1.44710409641265869141e+00) (70, 5.25092697143554687500e+00) (71, 3.89976429939270019531e+00) (72, 4.54726409912109375000e+00) (73, -1.53105974197387695312e+00) 
