FANN_FLO_2.1
num_layers=3
learning_rate=0.700000
connection_rate=1.000000
network_type=0
learning_momentum=0.000000
training_algorithm=2
train_error_function=1
train_stop_function=0
cascade_output_change_fraction=0.010000
quickprop_decay=-0.000100
quickprop_mu=1.750000
rprop_increase_factor=1.200000
rprop_decrease_factor=0.500000
rprop_delta_min=0.000000
rprop_delta_max=50.000000
rprop_delta_zero=0.100000
cascade_output_stagnation_epochs=12
cascade_candidate_change_fraction=0.010000
cascade_candidate_stagnation_epochs=12
cascade_max_out_epochs=150
cascade_min_out_epochs=50
cascade_max_cand_epochs=150
cascade_min_cand_epochs=50
cascade_num_candidate_groups=2
bit_fail_limit=3.49999994039535522461e-01
cascade_candidate_limit=1.00000000000000000000e+03
cascade_weight_multiplier=4.00000005960464477539e-01
cascade_activation_functions_count=10
cascade_activation_functions=3 5 7 8 10 11 14 15 16 17 
cascade_activation_steepnesses_count=4
cascade_activation_steepnesses=2.50000000000000000000e-01 5.00000000000000000000e-01 7.50000000000000000000e-01 1.00000000000000000000e+00 
layer_sizes=31 13 2 
scale_included=0
neurons (num_inputs, activation_function, activation_steepness)=(0, 0, 0.00000000000000000000e+00) (0, 0, 0.00000000000000000000e+00) (0, 0, 0.00000000000000000000e+00) (0, 0, 0.00000000000000000000e+00) (0, 0, 0.00000000000000000000e+00) (0, 0, 0.00000000000000000000e+00) (0, 0, 0.00000000000000000000e+00) (0, 0, 0.00000000000000000000e+00) (0, 0, 0.00000000000000000000e+00) (0, 0, 0.00000000000000000000e+00) (0, 0, 0.00000000000000000000e+00) (0, 0, 0.00000000000000000000e+00) (0, 0, 0.00000000000000000000e+00) (0, 0, 0.00000000000000000000e+00) (0, 0, 0.00000000000000000000e+00) (0, 0, 0.00000000000000000000e+00) (0, 0, 0.00000000000000000000e+00) (0, 0, 0.00000000000000000000e+00) (0, 0, 0.00000000000000000000e+00) (0, 0, 0.00000000000000000000e+00) (0, 0, 0.00000000000000000000e+00) (0, 0, 0.00000000000000000000e+00) (0, 0, 0.00000000000000000000e+00) (0, 0, 0.00000000000000000000e+00) (0, 0, 0.00000000000000000000e+00) (0, 0, 0.00000000000000000000e+00) (0, 0, 0.00000000000000000000e+00) (0, 0, 0.00000000000000000000e+00) (0, 0, 0.00000000000000000000e+00) (0, 0, 0.00000000000000000000e+00) (0, 0, 0.00000000000000000000e+00) (31, 5, 5.00000000000000000000e-01) (31, 5, 5.00000000000000000000e-01) (31, 5, 5.00000000000000000000e-01) (31, 5, 5.00000000000000000000e-01) (31, 5, 5.00000000000000000000e-01) (31, 5, 5.00000000000000000000e-01) (31, 5, 5.00000000000000000000e-01) (31, 5, 5.00000000000000000000e-01) (31, 5, 5.00000000000000000000e-01) (31, 5, 5.00000000000000000000e-01) (31, 5, 5.00000000000000000000e-01) (31, 5, 5.00000000000000000000e-01) (0, 5, 0.00000000000000000000e+00) (13, 5, 5.00000000000000000000e-01) (0, 5, 0.00000000000000000000e+00) 
connections (connected_to_neuron, weight)=(0, 1.24098360538482666016e-03) (1, 5.72560802102088928223e-02) (2, -9.71353799104690551758e-02) (3, 4.57575246691703796387e-02) (4, 4.66806963086128234863e-02) (5, -3.76612134277820587158e-02) (6, 2.79582217335700988770e-02) (7, 9.40089896321296691895e-02) (8, 9.06522572040557861328e-03) (9, -4.08271625638008117676e-02) (10, 1.78886428475379943848e-02) (11, 5.44557049870491027832e-02) (12, 3.69034484028816223145e-02) (13, 3.61691638827323913574e-02) (14, 9.50398370623588562012e-02) (15, -6.55681043863296508789e-02) (16, -3.07223945856094360352e-03) (17, -3.50777357816696166992e-02) (18, 4.85468730330467224121e-02) (19, -7.25942030549049377441e-02) (20, -9.07501801848411560059e-02) (21, -3.82876880466938018799e-02) (22, 9.88634899258613586426e-02) (23, -1.43282860517501831055e-03) (24, -8.15542936325073242188e-02) (25, -8.29785019159317016602e-02) (26, -1.96690410375595092773e-02) (27, 2.23496407270431518555e-02) (28, 3.05128321051597595215e-02) (29, 2.92093381285667419434e-02) (30, -7.85434916615486145020e-02) (0, -8.04829746484756469727e-02) (1, -7.72937163710594177246e-02) (2, -7.55268707871437072754e-02) (3, 1.98625177145004272461e-02) (4, 2.94316485524177551270e-02) (5, 5.76978847384452819824e-02) (6, -7.16484040021896362305e-02) (7, 5.31642138957977294922e-03) (8, -4.69377525150775909424e-02) (9, -8.27951505780220031738e-02) (10, 6.19356706738471984863e-02) (11, -4.71050217747688293457e-02) (12, -9.40520316362380981445e-02) (13, 6.75137266516685485840e-02) (14, -9.67745035886764526367e-02) (15, -8.91193598508834838867e-02) (16, -2.90198773145675659180e-02) (17, 6.28270581364631652832e-02) (18, -6.58063739538192749023e-02) (19, -7.68607854843139648438e-03) (20, 2.01020389795303344727e-02) (21, 5.49544170498847961426e-02) (22, 1.88729166984558105469e-02) (23, -2.87716090679168701172e-03) (24, 4.35417369008064270020e-02) (25, 6.14069402217864990234e-03) (26, 6.73761218786239624023e-03) (27, 3.90551313757896423340e-02) (28, -2.97874212265014648438e-04) (29, -6.38362765312194824219e-03) (30, -8.96261036396026611328e-02) (0, 5.40902987122535705566e-02) (1, 9.56360176205635070801e-02) (2, -4.55786697566509246826e-02) (3, -4.07491326332092285156e-02) (4, -7.06670060753822326660e-02) (5, 9.96165946125984191895e-02) (6, 5.61698302626609802246e-02) (7, 4.62852194905281066895e-02) (8, -8.41818302869796752930e-02) (9, -4.40089888870716094971e-02) (10, -5.90491779148578643799e-02) (11, -3.95203717052936553955e-02) (12, -1.88977345824241638184e-02) (13, -1.42229273915290832520e-02) (14, -4.47306036949157714844e-02) (15, 1.26971751451492309570e-02) (16, 1.40162557363510131836e-03) (17, -4.27592284977436065674e-02) (18, -5.43701313436031341553e-02) (19, 1.19817256927490234375e-03) (20, -6.23676218092441558838e-02) (21, -1.26022323966026306152e-02) (22, -5.77086210250854492188e-03) (23, 9.16050374507904052734e-03) (24, -3.92671339213848114014e-02) (25, 3.73182371258735656738e-02) (26, 7.41052627563476562500e-03) (27, -5.12402169406414031982e-02) (28, 5.67112863063812255859e-03) (29, -8.53230580687522888184e-02) (30, -2.46665924787521362305e-02) (0, 2.86747142672538757324e-02) (1, -6.40543922781944274902e-02) (2, 3.78777906298637390137e-02) (3, 1.19358450174331665039e-02) (4, 5.73086738586425781250e-03) (5, -8.13345015048980712891e-02) (6, 1.11022219061851501465e-02) (7, -4.89920377731323242188e-03) (8, 5.90891316533088684082e-02) (9, -8.91587212681770324707e-02) (10, -9.05562713742256164551e-02) (11, 2.08237916231155395508e-02) (12, -1.46334245800971984863e-02) (13, 5.60728833079338073730e-02) (14, 1.69321894645690917969e-02) (15, -2.06046625971794128418e-02) (16, 9.74160060286521911621e-02) (17, 7.07459971308708190918e-02) (18, 2.79641672968864440918e-02) (19, -6.39732927083969116211e-03) (20, 8.00344571471214294434e-02) (21, -6.08601011335849761963e-02) (22, -7.57225751876831054688e-02) (23, -6.93413391709327697754e-02) (24, -1.98668614029884338379e-02) (25, 9.77283343672752380371e-02) (26, -7.98921361565589904785e-02) (27, 5.29147312045097351074e-02) (28, -6.20942339301109313965e-02) (29, -1.77408456802368164062e-02) (30, 2.96479985117912292480e-02) (0, 9.38212200999259948730e-02) (1, 5.31851276755332946777e-02) (2, 8.24029073119163513184e-02) (3, -5.42962513864040374756e-02) (4, 4.29393127560615539551e-02) (5, 8.09445157647132873535e-02) (6, 3.45436111092567443848e-02) (7, -2.54597216844558715820e-02) (8, 9.83690097928047180176e-02) (9, 8.79867151379585266113e-02) (10, -7.41964578628540039062e-03) (11, 9.80265215039253234863e-02) (12, -6.83344900608062744141e-02) (13, -9.78274270892143249512e-02) (14, 1.44939795136451721191e-02) (15, 2.25365161895751953125e-04) (16, -1.23526826500892639160e-02) (17, -1.15115717053413391113e-02) (18, -7.49520882964134216309e-02) (19, 8.02506282925605773926e-02) (20, -2.76121795177459716797e-02) (21, -7.78724104166030883789e-02) (22, -1.65022164583206176758e-03) (23, 6.47161677479743957520e-02) (24, 8.47797617316246032715e-02) (25, 9.35116484761238098145e-02) (26, 5.03713712096214294434e-02) (27, -8.39890539646148681641e-03) (28, 3.96149381995201110840e-02) (29, 8.23923200368881225586e-03) (30, 7.68576636910438537598e-02) (0, -5.33435754477977752686e-02) (1, 5.45732006430625915527e-02) (2, 1.18892937898635864258e-02) (3, 2.33146399259567260742e-02) (4, 4.92168143391609191895e-02) (5, -1.30471959710121154785e-02) (6, -8.41578245162963867188e-02) (7, -4.06160019338130950928e-02) (8, -3.31424698233604431152e-02) (9, -2.55195349454879760742e-02) (10, 9.31219682097434997559e-02) (11, -9.90584418177604675293e-02) (12, -7.51815363764762878418e-02) (13, 2.39417925477027893066e-02) (14, -1.02697685360908508301e-02) (15, -3.97247821092605590820e-03) (16, 3.46267744898796081543e-02) (17, -2.79221907258033752441e-02) (18, -8.81853997707366943359e-02) (19, 6.80393651127815246582e-02) (20, -6.23923651874065399170e-02) (21, -2.84767150878906250000e-02) (22, -8.14209878444671630859e-03) (23, -4.42081578075885772705e-02) (24, -6.51722401380538940430e-03) (25, 6.49635121226310729980e-02) (26, 4.17510941624641418457e-02) (27, -8.92387777566909790039e-02) (28, -3.61079350113868713379e-02) (29, -6.60178437829017639160e-02) (30, 3.81060764193534851074e-02) (0, 4.86818924546241760254e-02) (1, -3.46678495407104492188e-03) (2, -6.62977993488311767578e-02) (3, -6.70445263385772705078e-02) (4, -1.72474756836891174316e-02) (5, -7.83278644084930419922e-02) (6, -5.64091168344020843506e-02) (7, -6.80388212203979492188e-02) (8, 7.16055706143379211426e-02) (9, 7.47609212994575500488e-02) (10, -9.32726189494132995605e-02) (11, -3.28565388917922973633e-02) (12, -1.98908895254135131836e-02) (13, 9.37906429171562194824e-02) (14, -6.08288943767547607422e-02) (15, 4.87834736704826354980e-02) (16, -9.61631163954734802246e-02) (17, -1.35050565004348754883e-02) (18, 2.05395594239234924316e-02) (19, 8.27131420373916625977e-03) (20, 1.58722251653671264648e-02) (21, -3.54136973619461059570e-02) (22, 2.08129733800888061523e-03) (23, -1.96849256753921508789e-02) (24, -4.46172021329402923584e-02) (25, -8.12860727310180664062e-02) (26, 2.49428898096084594727e-02) (27, 1.50764361023902893066e-02) (28, -1.02717876434326171875e-02) (29, -3.78903932869434356689e-02) (30, -2.38394886255264282227e-02) (0, -7.02675133943557739258e-02) (1, 1.38728767633438110352e-02) (2, -3.86141315102577209473e-02) (3, 1.22859254479408264160e-02) (4, 8.95655378699302673340e-02) (5, -7.20520615577697753906e-02) (6, 2.10282355546951293945e-02) (7, 2.14103460311889648438e-02) (8, 4.36600968241691589355e-02) (9, -4.92216646671295166016e-03) (10, 7.31442496180534362793e-02) (11, -6.47205412387847900391e-02) (12, 4.19482067227363586426e-02) (13, 2.34081894159317016602e-02) (14, 2.14811787009239196777e-02) (15, 3.41338142752647399902e-02) (16, 8.69549587368965148926e-02) (17, 5.20665124058723449707e-02) (18, 8.20364281535148620605e-02) (19, -1.39086917042732238770e-02) (20, 3.66160795092582702637e-02) (21, 6.28032535314559936523e-03) (22, -4.64645214378833770752e-02) (23, 7.08246156573295593262e-02) (24, -5.07161803543567657471e-02) (25, 1.31446495652198791504e-02) (26, -7.79036134481430053711e-02) (27, 7.39924386143684387207e-02) (28, -9.24406945705413818359e-03) (29, 3.49190905690193176270e-02) (30, 8.50529447197914123535e-02) (0, 8.47854390740394592285e-02) (1, -1.11318677663803100586e-02) (2, -9.32178944349288940430e-02) (3, 8.68467167019844055176e-02) (4, 3.28222885727882385254e-02) (5, 4.42598685622215270996e-02) (6, 7.55838826298713684082e-02) (7, -6.17396160960197448730e-02) (8, -5.77164702117443084717e-02) (9, -4.07019965350627899170e-02) (10, -7.84412175416946411133e-02) (11, 3.85289415717124938965e-02) (12, -4.39699180424213409424e-02) (13, -2.38079577684402465820e-03) (14, -1.40213370323181152344e-02) (15, -5.65810911357402801514e-02) (16, 4.16360571980476379395e-02) (17, -2.27824300527572631836e-02) (18, 9.56423506140708923340e-02) (19, 6.11072704195976257324e-02) (20, 2.97637209296226501465e-02) (21, 3.88430282473564147949e-02) (22, 3.47549393773078918457e-02) (23, -7.39566683769226074219e-02) (24, 1.03295817971229553223e-02) (25, 9.20855998992919921875e-03) (26, -3.17345261573791503906e-02) (27, 3.78366187214851379395e-02) (28, -7.98400640487670898438e-02) (29, -7.19782263040542602539e-02) (30, 6.19945600628852844238e-02) (0, -5.75185418128967285156e-02) (1, 8.58790352940559387207e-02) (2, -3.09740975499153137207e-02) (3, 1.83962360024452209473e-02) (4, -1.44261419773101806641e-02) (5, -6.02066777646541595459e-02) (6, -9.35827940702438354492e-02) (7, -4.59572784602642059326e-02) (8, -3.96143645048141479492e-03) (9, 2.00663208961486816406e-02) (10, 5.47376349568367004395e-02) (11, -2.45602428913116455078e-02) (12, 1.59951820969581604004e-02) (13, 3.10843214392662048340e-02) (14, 3.42759862542152404785e-02) (15, 7.64034166932106018066e-02) (16, -8.78337398171424865723e-02) (17, -2.16180533170700073242e-02) (18, 6.53785094618797302246e-02) (19, 1.66755542159080505371e-02) (20, 6.61642774939537048340e-02) (21, 2.29959264397621154785e-02) (22, 9.24834087491035461426e-02) (23, -3.12208607792854309082e-02) (24, 7.10028186440467834473e-02) (25, -5.57305850088596343994e-02) (26, -6.39340728521347045898e-02) (27, 6.00676015019416809082e-02) (28, -4.39032614231109619141e-02) (29, -8.21518674492835998535e-02) (30, 7.35920891165733337402e-02) (0, 6.23323544859886169434e-02) (1, 1.99989452958106994629e-02) (2, -7.77019932866096496582e-02) (3, 6.25692680478096008301e-02) (4, 1.65804475545883178711e-03) (5, 6.67856112122535705566e-02) (6, 6.57517388463020324707e-02) (7, 8.93539860844612121582e-02) (8, -2.73947343230247497559e-02) (9, -2.33712047338485717773e-02) (10, 2.17422842979431152344e-04) (11, 5.42202517390251159668e-02) (12, 7.96610489487648010254e-02) (13, 6.32730051875114440918e-02) (14, 2.93415561318397521973e-02) (15, -5.65824769437313079834e-02) (16, 1.83353871107101440430e-02) (17, -3.70852947235107421875e-02) (18, -9.25228819251060485840e-02) (19, -3.20654958486557006836e-02) (20, 7.51444920897483825684e-02) (21, -4.64465096592903137207e-02) (22, -2.64764651656150817871e-02) (23, 1.00082755088806152344e-02) (24, 9.07012075185775756836e-03) (25, 4.15187552571296691895e-02) (26, 5.88037073612213134766e-03) (27, 3.14137116074562072754e-02) (28, -2.98685133457183837891e-02) (29, -6.56843185424804687500e-05) (30, 9.60147008299827575684e-02) (0, -8.09341371059417724609e-02) (1, -6.00672326982021331787e-02) (2, 4.99859228730201721191e-02) (3, -8.66791903972625732422e-02) (4, -1.71356871724128723145e-02) (5, 5.50173223018646240234e-04) (6, 4.66979816555976867676e-02) (7, 5.27816042304039001465e-02) (8, -9.94935482740402221680e-02) (9, 1.19999051094055175781e-02) (10, 8.23810175061225891113e-02) (11, -2.24330052733421325684e-02) (12, -3.15393656492233276367e-02) (13, -8.22008922696113586426e-02) (14, 4.96382042765617370605e-02) (15, 6.92268833518028259277e-02) (16, 9.61625054478645324707e-02) (17, 3.32920253276824951172e-03) (18, -4.59716990590095520020e-02) (19, -4.63112257421016693115e-02) (20, 4.72262427210807800293e-02) (21, -6.85483962297439575195e-02) (22, -9.28153619170188903809e-02) (23, 5.22749349474906921387e-02) (24, -1.52876749634742736816e-02) (25, 6.00992068648338317871e-02) (26, 8.73538181185722351074e-02) (27, -4.44775931537151336670e-02) (28, 6.51048198342323303223e-02) (29, 1.67473778128623962402e-02) (30, 7.31813833117485046387e-02) (31, -4.05503697693347930908e-02) (32, 6.99357464909553527832e-02) (33, 1.01849585771560668945e-02) (34, -2.14676409959793090820e-02) (35, -6.59464299678802490234e-03) (36, -3.62251624464988708496e-02) (37, -3.62922176718711853027e-02) (38, 3.67090478539466857910e-02) (39, -3.10911312699317932129e-02) (40, 5.13917282223701477051e-02) (41, -5.93352839350700378418e-02) (42, -4.80760820209980010986e-02) (43, -1.46991610527038574219e-02) 
